0002
000e
ffec
0007
000f
000d
ffe6
fff5
ffe7
fff3
000d
fff4
000f
fff3
0004
ffe9
0005
ffea
fff9
ffe9
0000
001a
000d
fff2
0000
fffd
ffea
0015
0001
0006
fff5
fff3
0004
000a
0006
fff3
0022
fffc
ffeb
fff1
0016
fffc
fffa
ffeb
ffeb
ffec
ffed
0011
0016
0019
ffeb
0010
ffef
000e
0016
0015
0011
0016
0005
000f
fff5
000c
fff8
0000
ffe9
fff9
fff2
fff7
ffef
ffe8
0001
0011
001c
0011
fff3
ffe2
0007
000b
ffea
0008
0010
0002
fff0
0016
000c
0012
ffee
0010
ffee
001b
fff0
000f
0001
0000
fff6
0008
ffee
ffe3
fffd
0021
0025
003d
0002
002e
0035
ffda
ffba
ffd6
0002
fff1
0017
ffe8
000e
001c
000e
000a
ffe6
001a
fffc
ffe8
001b
fff5
fffe
0018
ffed
ffec
0017
0031
004e
ffd4
fff1
fff9
ffc9
ffaf
ffff
000f
fff6
0024
0000
fffb
ffee
0003
0018
0018
fff0
001f
000a
0020
0034
0038
ffe9
0015
ffee
0005
fff3
0000
fffc
fffc
0002
ffff
0018
0010
0017
001c
002a
fff0
fff4
0003
ffde
ffe0
0017
fff6
0000
fffa
0004
0012
fff7
0016
0015
ffeb
fff6
ffea
fff3
0000
fffa
fff1
fff4
ffef
fff0
ffec
ffcf
ffd9
0051
003b
0022
0034
0030
ffe2
0011
0016
fff2
0019
0015
0001
000e
fff8
ffe9
0007
0009
ffef
000e
ffea
0018
001b
0008
ffef
000f
0017
000b
0055
005d
fffa
ffeb
fff1
ffe2
0024
0000
0009
0008
0000
0018
fff2
ffdc
0002
ffcf
ffe5
fff9
ffe2
fffa
0009
000c
0034
000f
0012
0006
ffe8
000a
001c
fff0
ffeb
001d
001e
0008
0025
000c
0002
000a
0001
ffec
fff1
ffdd
0013
0017
000f
0005
0009
ffed
fffa
fffe
fff1
ffec
0014
0014
ffe8
000a
000b
001a
0011
001a
fff0
0012
0020
ffe6
ffef
000b
000c
fff5
0008
0000
0007
fff1
000f
0012
ffed
0000
0000
0009
0019
0008
fffa
0018
fff6
fff8
0002
ffeb
0003
ffe8
0003
000f
0000
ffeb
ffe9
0008
001a
fff5
000a
ffed
0002
0018
0014
ffec
0010
000f
0003
0017
fff3
fffc
fff2
0005
000a
0001
fff0
fff2
0009
ffe8
fffc
ffff
fff5
000a
0001
0013
fffe
ffee
0017
0009
fff7
ffef
0006
ffe5
000a
0014
ffe8
ffee
ffed
0017
0017
0002
0019
fff7
ffe6
0001
0011
001b
fffa
001e
000f
0013
fff7
0019
ffe3
0042
0051
ffbf
000e
000c
ffcd
fff1
fffd
0016
fff9
0011
0004
0001
0006
ffee
ffe9
fff7
ffe7
fff3
0001
ffee
fff5
fffb
fffd
fff0
0001
ffdd
0020
0052
ffc6
ffe8
0006
ffe5
001c
0024
0006
0007
0012
fffd
ffe6
ffff
fff3
0005
fff7
0002
0005
0024
0011
0011
001e
ffe3
fff2
ffee
0014
ffed
000c
ffee
fffa
fff8
ffe7
ffe2
ffe9
fff8
001b
fffb
ffec
0007
ffe1
0012
0038
0016
ffec
0006
000a
0015
fff2
ffe8
000c
0002
fff7
ffee
ffee
0018
fff3
0013
001f
0001
000d
0006
0024
ffe6
000e
ffd1
ffdd
fff8
ffeb
fff2
0027
ffee
ffef
fffa
fff7
000b
0012
fffd
0019
fff4
fff1
fff4
ffed
ffed
ffe8
ffe8
0007
0010
0019
000b
ffe2
fffc
ffc8
ffd5
ffe4
0028
001d
003d
0004
ffed
0015
000e
0011
0006
001d
001d
0014
002c
0009
0017
0009
000f
0015
fffc
ffe6
fff4
0008
0004
fff8
0012
000e
ffed
fffd
fffb
ffeb
fff3
ffe7
fff1
ffeb
ffed
0027
001b
0035
002a
0006
000b
0005
ffeb
fff0
fff9
0000
000a
000a
0015
0006
fff7
ffec
ffec
fff0
0008
000f
0018
fff7
fffe
fff9
0000
000a
0000
0001
0004
000a
fff8
fff0
0006
fffd
fff4
000b
0000
fffc
fff3
fffc
ffe9
0006
0000
0010
0002
0002
0007
0015
fff3
0011
0008
ffee
000b
fff1
fff8
fff3
ffee
0015
ffe8
000d
ffe8
fffd
0002
0013
fff6
0008
0004
0010
0002
000a
fff0
ffed
0018
ffed
fffc
fffd
001a
fffa
ffeb
fff9
000e
000b
0016
fffb
000d
ffe7
000b
000d
0012
fff0
fff9
0007
ffed
ffeb
ffe6
0002
0011
0007
0002
0009
ffef
0003
fff7
fff4
0020
ffe9
0004
ffea
fff9
ffee
0006
ffde
ffeb
ffe3
001c
0000
002e
0005
0010
0009
0012
0009
ffe9
0003
ffee
0014
0005
fffa
fff3
000a
fff0
000d
000f
0011
0008
ffe9
0014
fff8
ffef
ffe9
001d
0028
001f
002e
ffde
ffec
ffdc
000d
fff3
fffd
001c
0022
fff5
ffee
fffd
000b
fffe
ffee
ffe8
0016
0021
fffe
0020
0029
0031
fffe
0000
0011
0014
001c
fff7
000a
0013
fff2
0003
ffff
0029
fffb
000e
001d
ffe0
ffdb
ffec
0011
0012
ffee
0005
fff2
fff3
0017
000d
fff9
0004
0005
000c
fff9
fff2
0016
0005
000d
fff6
0008
fff1
fff5
0006
0014
fffc
0019
0035
0027
fff5
0018
000a
fffd
0017
fff2
0011
001b
ffed
fff0
ffe5
fffb
ffe7
fff7
0008
0013
000f
000f
0005
ffce
ffd0
0009
0027
000b
0011
0003
fffc
ffe9
0013
fff9
ffec
0008
0004
fffd
000a
000e
ffe5
ffe2
fff5
ffe1
ffd9
000b
0005
fff8
fff9
ffeb
0014
fff8
fff3
ffed
000d
fffd
ffff
fffa
ffed
fff9
0011
fff5
000a
fff2
fff9
001b
fffe
001a
fffb
fff1
fff0
0018
ffeb
000e
0007
0008
0009
fffc
001b
ffe7
0001
001f
000a
0007
fffa
0007
fffb
fff7
fff7
0010
0052
ffe2
fffe
002b
000f
fff2
ffe5
0005
000e
0006
0014
ffeb
000e
ffef
000f
0014
0009
0016
ffee
ffe8
ffe6
0011
001e
ffdb
0025
0011
fff7
0065
fff9
fffd
0008
0018
000e
001b
000a
0008
ffe8
0004
ffe5
fff1
0011
fff7
ffd0
fff2
000a
fffb
0006
fff2
ffff
fffe
0015
fff4
0016
0015
ffe7
0001
fff7
ffec
0003
fff7
0026
ffe6
001b
ffff
fff5
000b
fffd
000e
ffea
0003
fff0
0001
ffe9
fff8
0013
ffe7
