fffb
fff4
fffc
ffeb
ffee
0001
0009
0002
0011
ffe4
ffee
fff8
0003
ffe8
fff5
fff0
0000
fff8
fffd
ffe7
ffe4
ffee
ffee
ffe2
0015
fff6
0012
0008
fff2
0024
fff9
0000
fffb
ffe0
000d
0006
0005
fff6
002d
ffe7
0008
001e
ffff
001a
0028
ffeb
0007
fff4
fffd
ffec
0018
ffec
000e
0009
000a
fff3
001a
0005
0004
ffe7
0008
fffb
fff1
0016
0004
ffef
fff2
fffe
000e
fff9
fff0
fff6
ffea
000a
0015
ffe4
0006
000f
0002
fff5
000d
000f
000f
0000
fffa
0007
ffff
fff7
0014
0018
0025
002f
002f
000d
0033
003d
ffcb
fff4
002b
0008
fffc
ffed
ffec
ffe4
fff8
0009
000f
000b
ffe3
ffe7
fff7
0012
fff6
ffea
0003
ffe9
ffe0
0027
0009
000e
fff7
002d
002c
0007
fff6
fff0
0014
004c
0036
0038
004d
0049
fff5
fffb
000b
ffe7
000c
fff3
fffb
fff1
fffb
ffed
ffee
0009
ffff
001b
fffa
ffeb
0000
fff4
fff6
ffe7
000e
ffee
000e
000d
0020
fff9
001f
fff4
000b
001c
0003
0006
0000
ffe7
000d
ffec
0013
0013
0016
0008
fff3
0009
0016
ffef
fffe
fff0
0007
fff9
fff7
fff8
ffe6
0019
0017
fffc
fffe
fff5
ffe8
ffe6
000a
fff1
ffef
fffe
fff7
fff8
0001
fffa
fff7
fff3
ffeb
0017
fff6
0008
fff8
0003
001a
000e
ffe9
000a
001b
0008
0012
001b
fffc
0006
ffef
fffc
0014
0011
fff0
ffea
ffef
ffe6
ffeb
fff9
0012
0005
ffeb
ffea
000d
ffec
fffd
000d
fff4
fffd
fffe
fffa
fff2
ffe8
ffea
fff2
001a
fff3
ffee
0007
0008
000f
0015
0010
ffe6
0003
0010
fffe
fff0
001b
fff6
fff0
ffe8
0001
000c
0006
0005
ffec
ffe7
0000
0019
0010
fff0
fffc
ffed
fff5
0005
0010
0018
ffe8
0015
fff0
000b
0017
0001
0019
ffe9
fff6
0010
fffa
fffb
fff5
0013
000d
0009
fff1
ffea
0002
0008
fff3
fff8
0013
0003
0001
fffb
ffe9
ffe7
fff6
fff4
0009
fff9
fff7
001a
000b
0015
fff4
fff8
000d
ffef
ffee
ffff
fff6
ffec
0010
0016
0004
fffb
ffe7
fff6
0007
000d
fffd
fff5
000f
ffeb
0011
fff6
0000
fffb
0003
fff8
0014
ffff
0015
001a
fff3
ffec
0016
0015
ffeb
fffe
ffe6
ffea
0006
0007
0006
fff9
0019
0004
fff0
ffff
0007
000a
ffed
0024
0017
0004
001a
0054
0047
002e
003c
0037
fffa
fff4
0013
fff1
fff1
fffd
0004
0012
fffb
fff3
0007
fff7
ffe1
fffd
fff0
0004
0002
fff0
0017
0016
0003
0018
0020
001c
0035
0014
ffff
000f
0012
000d
0044
0055
0039
0015
0030
0027
fffb
0002
ffe7
0009
ffec
ffef
ffea
0018
ffe7
0017
0001
fffb
0016
0001
0010
0013
ffeb
0007
0003
0002
0001
0009
fff5
0000
001f
0018
0004
ffe8
0006
fff0
0018
fff4
0005
fffc
000d
0021
0008
0012
0016
0025
fffc
fffb
0017
ffff
000f
fff6
ffe4
0000
000b
0010
001c
001e
0026
000f
ffe8
ffec
ffed
ffe7
fff1
ffe5
ffe6
ffee
ffe3
fff7
0013
001f
fffd
fffe
0013
fff6
fff6
0012
ffe3
fffa
0010
0005
0006
fff1
0004
0007
0010
0001
0009
ffdd
0005
fff3
ffea
000b
fff6
0023
0003
fff1
000e
ffe7
fff6
fffb
ffe9
ffef
fffc
0014
001a
0012
fff1
fff0
0019
000b
0003
0006
ffec
fff8
001b
fffb
0000
ffea
fff2
0001
fff0
fffd
000b
ffe5
0009
ffef
fff3
000b
0017
fffb
fff3
ffe6
fff2
ffe9
fffa
0007
ffe9
001a
0013
fffb
000d
0025
ffeb
fff1
fff4
fff1
ffd0
0001
0001
0005
0015
fffc
fff1
fffd
0011
ffe8
0003
ffda
0004
fffe
ffff
0009
fffc
001b
fff4
0007
0020
0030
0027
ffe9
0014
ffff
ffe6
ffd6
fff3
003a
0033
0023
0005
fffc
0028
ffbf
ffd6
ffd3
fff6
0008
001a
0005
001a
0005
0010
0016
0016
fff2
001c
0014
fff0
fff1
ffeb
0003
ffe7
000c
000e
ffee
000c
0004
0011
0013
ffe6
001a
0019
000d
ffeb
fffb
fff8
fff9
0010
0005
0012
fff4
000d
000d
ffec
ffe4
fff0
0014
ffe2
ffe2
000e
0019
0017
ffe4
fff4
0013
001a
0015
0005
000a
001b
ffef
fff2
0012
ffec
ffed
0012
0007
0005
fff2
0001
001e
ffef
0001
000c
ffec
0019
fff0
fffd
fff1
ffe2
ffe5
0009
0005
ffe9
ffed
001e
0015
0009
ffe5
fffb
fffe
fffd
fff2
0005
000a
fffd
0004
fff5
0007
000a
fff2
ffe5
000e
0006
fff2
001a
fff7
0014
0012
ffef
0013
ffe9
fff4
fffc
ffee
001a
fffb
000b
ffe8
0010
fff9
ffee
0006
0010
0018
fff0
fff3
0004
0007
0009
000f
fffa
000b
0013
fffa
0013
0010
0018
ffef
fff4
fff0
0001
001c
fff3
0016
0008
0025
0017
0007
ffee
ffeb
000f
ffef
ffff
000a
fff1
0007
ffe9
fff7
fff0
ffff
fffb
0008
ffff
000c
0017
0006
fff0
ffeb
0016
fff6
0018
0021
0017
002c
0030
fff8
ffeb
0022
fff8
0000
002a
0030
0028
0025
ffe9
fffd
001a
0007
0002
fffb
fff7
0010
0002
0011
fffc
000b
000d
0004
0010
0013
001b
0015
fffc
ffea
0005
0000
fff9
fffc
0001
0014
0008
fff4
fff3
fff9
fff7
001a
000f
001e
0006
000a
0007
ffe9
0005
ffff
fff5
ffee
001b
001b
0012
001a
fff5
fffb
000a
fffb
fffb
ffea
0007
ffef
0001
001a
fff8
fff8
0010
fff6
fffe
0019
fff5
ffed
fff1
fff8
fff3
fff2
000b
0004
fff7
ffeb
fff7
fff4
fff7
ffe8
0006
ffec
ffeb
ffea
000b
fff0
fff5
0015
000e
000f
ffe6
ffed
fff5
0016
0003
ffec
0000
ffeb
fffa
fff9
0017
0008
fffb
0005
fff8
000b
000b
0007
fff5
0017
fffc
fff5
0011
0016
001b
0008
fff7
000e
0017
ffe6
fffd
ffee
0005
000b
fffa
fffe
000c
fffb
ffe9
0015
fff2
fffd
0003
fffe
ffe7
000c
fff4
fff2
0006
