0010
fffd
0009
fff2
0015
0016
ffe9
fff9
ffe7
0005
ffe5
fff4
0003
ffdb
0015
fff5
000e
fff4
0043
0016
fff8
0049
ffed
ffdd
003e
ffe2
ffdc
fffe
fff7
fffd
ffed
0009
ffe9
0001
000f
0006
0005
fffa
fffa
ffe7
ffe9
fff5
ffd6
0010
0007
ffff
000d
fffe
ffea
ffe9
fff7
0004
ffe9
0001
000a
0016
0008
0005
0012
000c
0009
fff8
ffea
fff6
fff5
0000
fff9
0005
0010
ffef
ffe1
fff0
fffb
000c
ffed
fffe
fff3
ffed
0005
ffed
fffd
ffdd
ffed
0008
ffe2
ffef
0014
ffdd
fff4
fff5
fffc
ffe7
0016
fff3
fff5
0002
0007
fffe
0013
ffee
fffd
fff3
ffe7
ffef
ffff
0004
0015
0016
ffe8
ffeb
fff9
ffe6
fff6
fff6
fff8
000f
000b
ffef
ffed
fff5
0007
ffff
0003
001a
000c
0005
fff8
0007
0013
ffe2
ffec
0003
0009
000f
fff3
ffe5
0005
0003
0006
fffc
0013
0009
0017
ffeb
000b
0003
fff3
000d
ffe5
0016
0002
0003
000d
fffd
0007
0011
ffe9
0014
0005
fff3
0007
001a
ffed
ffeb
0015
ffee
0009
0000
0004
0015
ffef
ffe7
0011
0013
fff9
fff3
0025
fffd
0000
fff4
0001
0015
0006
001c
0009
0000
0010
0002
fffb
0001
0014
0012
0037
0029
ffe4
0010
0009
ffb9
0042
0029
000a
ffed
fffa
ffb2
ffd0
ffc4
ffea
fffd
ffeb
0013
fffe
0012
0013
fff0
0004
ffed
ffe9
ffeb
0013
0007
001c
0016
0014
fffa
ffec
fffb
fffb
ffc7
0018
0010
0030
0037
0036
002a
ffef
fff4
fff5
fff5
0015
0009
0015
ffff
ffe8
0024
0032
0018
0013
fff3
ffc5
ffde
0004
ffed
0017
000a
ffe9
fff0
ffde
ffe2
fffd
ffe7
001c
000e
fff6
fff6
ffe0
ffcc
ffa6
ffe0
0004
0005
000c
ffe7
0003
ffff
0004
0019
000e
ffee
ffe8
ffed
ffee
000c
fff0
0008
0004
fffa
fffa
fffc
000d
0004
ffd2
0027
0005
ffe5
0000
002a
0020
0006
fffe
ffff
fff4
fffd
fffe
0017
0010
ffeb
fff6
ffea
fff7
ffe3
0002
ffe8
002e
0017
ffe9
ffdb
fffc
fff7
fffd
ffe2
0004
ffec
fff1
fff2
000d
ffff
ffe6
fff1
fff4
ffe7
0004
000a
fffb
fff2
fffb
ffe6
fff1
0002
0015
ffef
0008
fff1
0006
ffe7
0013
0027
000d
0012
001f
001a
0015
ffd8
ffe1
ffe4
0012
ffe2
ffdf
0008
ffe6
fff5
0005
fff0
0010
fff6
fff9
0014
0016
fffd
ffed
000e
0014
0015
000b
ffdd
ffb7
ffc3
ffcf
ffeb
ffbe
ffcf
fff4
ffbf
ffc4
ffd6
ffed
0027
0030
0008
000f
0012
0007
ffef
ffef
ffea
fffb
ffe3
0008
0013
003e
001a
001b
fffb
ffdd
ffdc
ffc6
fff6
fff9
0000
fff6
001f
0029
0008
000f
fff7
ffff
0002
0017
0004
ffef
fff6
000d
0008
0001
fff6
fff0
ffeb
ffe1
fff1
0002
0010
0004
0020
fffa
fff2
ffef
0000
fffb
ffeb
000e
000b
001a
0008
0002
0014
ffdf
0010
001d
0013
0000
0002
fffc
0001
ffe5
000a
fff6
fff8
fff6
fffb
ffe6
fff3
fff4
0000
002e
ffe8
fffe
fff5
ffe4
ffea
0021
ffe8
ffd3
0008
0006
0005
fff3
ffcf
ffe8
fff0
fff3
000c
000a
fff3
000d
ffef
ffe8
0003
ffd3
ffdd
0029
ffde
ffd8
002e
ffcc
001a
0019
ffff
ffed
fffd
fff4
0013
0019
0010
0017
fffa
0005
fffa
0001
ffe6
ffea
0012
fff0
0015
0003
0009
000f
ffee
fff1
fff9
0005
ffd8
ffff
ffe9
0006
000a
0003
fff6
fff1
0019
0000
ffff
fff4
ffcf
0005
0044
ffe9
fff6
0046
ffdb
002d
002e
0003
fff6
001a
fff1
0012
ffe6
fff8
ffe8
fff3
ffff
ffd8
ffd0
0001
fffc
fff3
ffed
fff8
0011
fffe
ffeb
ffdd
ffea
fff1
0019
001b
001d
000e
001b
0005
fff6
fff6
fffb
000b
0009
0011
fffd
001e
ffde
ffe7
ffef
ffc4
ffdc
ffea
ffea
fffb
fff4
ffed
0031
fff1
000b
0012
ffee
fff0
fffc
001a
fffd
0014
ffeb
ffee
0016
fffd
001b
0002
ffe7
000b
000e
ffff
ffee
000f
fff8
0021
0012
fffa
0002
0002
ffee
001a
001a
fff2
0017
0001
fff0
ffcf
0010
ffde
000b
0038
0005
001a
0001
0008
ffed
fffb
000c
000a
fff9
fff2
000f
000b
0005
ffdc
ffca
0021
003b
fff1
ffeb
fff6
fff7
ffec
001c
0013
ffc1
fffd
000c
ffaf
ffbd
ffdc
fffc
0017
fff0
fffd
fffd
fffe
000e
0024
fff5
fff1
fff1
ffdc
001b
0015
ffee
001f
002f
002e
fff9
ffde
ffe1
0004
0005
ffdc
002c
0023
000c
0001
fffb
0019
0001
0010
ffe9
fff2
0003
0015
0013
000b
ffe1
ffff
fffa
fffd
ffe1
ffc8
fff8
ffed
0012
0022
ffd3
fffc
fffa
fffc
0002
ffe3
fffb
0014
ffdf
fff2
0023
ffff
ffce
0006
0003
ffee
0007
ffec
fff1
0011
fff9
fff3
0002
0006
ffe9
ffec
ffeb
0005
ffed
0000
000d
fff5
ffee
ffde
ffeb
fff2
fff3
ffee
0007
0015
0002
0008
0017
ffeb
fff4
ffed
fffe
0000
ffeb
0012
ffeb
001c
ffec
fffb
fffa
ffe9
000f
ffe7
fff7
ffe0
000f
0017
0017
fffe
ffef
001b
fff6
0008
ffec
fff3
ffea
0019
0004
ffed
0002
fff4
0001
0009
fff2
0003
ffeb
000e
ffe7
fffc
002a
0023
000f
0014
0018
0000
0010
0008
0018
0015
fff4
0005
ffec
fffc
ffd9
000a
ffed
fff9
0011
fff8
000e
000a
ffe5
0015
001a
000f
fff8
0005
ffe9
ffec
ffeb
ffc7
ffbb
0005
000e
ffd5
0023
0040
0026
001c
fffb
ffce
ffed
0043
0033
ffe2
ffda
0011
0016
ffeb
0018
ffee
ffed
ffe9
000d
fff1
fffb
ffe5
ffcb
ffaf
fffc
ffd9
ffdb
0009
0028
0008
ffdf
fff3
fffa
ffff
ffcc
ffd7
ffff
ffe1
000b
fff4
fff9
ffef
fff6
fff6
ffe8
0009
0000
001a
000b
0009
fff8
0007
0032
0033
ffd7
ffea
ffe7
0003
ffff
0017
0008
0012
0009
ffce
ffe6
ffe1
ffe5
ffe7
ffd9
0002
0028
0022
ffda
0008
002d
