fff8
001b
ffce
0068
0085
ffdf
0080
0055
006a
0018
0037
0001
0045
0011
ffde
0014
ffd6
fff7
ffe1
0035
ffb8
ffd3
ffde
ffc3
ffff
ffa3
0044
ffbf
004f
0015
0009
0061
002e
006c
003c
0013
002c
0002
0021
0093
0087
000e
006f
0065
0065
ffcc
ffab
ffdf
ffbd
0042
0014
001e
0016
fffa
0041
ffc3
000a
ffca
001f
ffea
0027
0000
005a
ffcb
ffce
ffd6
0051
0023
005e
ffbc
ffad
ffbe
ffd0
002d
002a
004b
ffd6
ffc6
002e
ffde
0032
ffec
003a
ffcb
ffd5
0024
0020
ffef
0041
004a
