fffa
0001
0005
fff2
fff2
fffc
0007
ffff
0008
0000
ffff
fff1
0002
0003
0002
0008
fff9
0007
fff3
fff7
0008
0005
0002
fffd
0004
ffee
fffe
0001
000b
0001
fff9
0008
0000
fffa
0008
fff9
0004
000d
0007
0000
fff4
ffff
0004
0003
fffe
0000
fff9
fff5
fff3
fff6
fff6
0008
fffd
fff5
fff9
0003
fffb
fff8
fff9
0000
0003
ffff
0007
0008
0008
0003
ffff
fffc
fff6
0004
0001
0005
fff8
fff7
000f
000c
fffb
0005
0000
ffec
fffa
0017
fffd
0008
0005
0004
0004
0005
0009
0006
fffb
fffb
fffc
0005
0004
0008
fffc
ffff
fff7
0008
fffa
0002
000b
0000
fffa
fff8
fff9
0007
fff6
fff8
ffe3
ffee
fff8
fff2
ffee
0012
000e
ffcd
ffe0
fff5
ffc3
ffe7
fffc
ffd7
ffdc
fffd
fff8
ffe3
ffe9
ffe0
0003
0020
001a
fff7
0001
000b
001d
001b
0018
0002
fff9
000b
0014
0014
000e
fffd
0002
0004
0001
0004
fff9
0005
0002
fffc
0000
fff7
fff9
0009
0010
0005
0008
fff7
fff9
0009
fff9
0007
000f
0010
0004
fff0
0004
ffff
fff1
0001
ffff
fff8
fff4
0007
0004
fffe
fff8
fff3
0003
000b
000a
0003
fff2
fff4
0006
fff8
0003
ffff
0003
ffff
fff6
fffb
0008
fffb
0000
fff0
0006
fff9
fffa
0001
fffd
0003
0001
fffd
fff4
0003
fff6
0015
0015
ffe6
ffda
ffef
0003
000a
fffe
ffdb
ffe3
0018
0009
fff0
fff3
ffe2
ffd2
0012
001b
0009
fff7
fffa
fffe
ffe7
0009
000c
fff8
0005
fffe
fffe
0001
fff2
fffa
0004
fffd
fff8
fffa
fff7
fff5
fff7
fff9
fffe
0003
fffc
0002
0003
0003
fff9
fffc
000d
0015
0002
ffec
0016
fff9
0005
0009
001d
ffe9
fffe
002a
000f
fffc
000d
0011
ffe3
fff5
0011
ffff
0005
fff9
000a
fff8
fff8
fffa
fff6
ffff
0002
0001
0002
fffe
fff8
fffc
fffd
0001
0004
fffa
0003
0007
fff9
ffff
fffa
0005
0008
0012
000a
ffff
fffc
fffb
0012
000f
ffeb
ffef
fff3
0006
fffc
000e
ffe6
ffcd
fffa
fff2
000c
fff8
fff4
0001
0025
ffff
ffff
fff6
0002
fff2
0015
0009
fffe
0007
fffb
0009
0007
0009
fff4
0000
fffc
0002
fff6
0003
ffff
ffff
fff6
0002
fffa
0006
fffb
fff9
fff7
0004
fffe
fff0
0006
fff4
ffe3
ffe5
002d
002a
ffe8
000e
fff9
ffc7
ffd4
001a
0024
ffeb
0013
0011
000b
ffd8
fff8
000f
000e
0003
fffd
001e
0010
fffc
000a
fffb
fffe
0001
000f
0011
fff6
fff8
fff4
fff5
000a
fffa
0005
fffc
fffb
0000
0009
0002
0011
0013
0011
fff8
fffb
fff6
0002
0006
0008
0006
fffe
fff6
fff8
0005
fffc
fffc
fff2
fff7
ffff
fff7
0000
fffc
fff8
0000
fffa
0000
fffc
000b
fff6
fffc
fffb
0003
0001
fffd
000a
fff6
0004
fffa
fffd
fff5
fff7
fff3
0000
fff6
0003
fff8
fffd
ffff
0000
fff1
000d
0020
0015
fffc
0008
fff1
ffe8
0000
0017
0007
fffd
fffa
0006
ffd8
ffb1
ffc2
fffe
0016
fff2
fffa
0004
ffee
ffec
0007
0013
0003
0010
001d
001b
fff6
fff0
0002
0002
fffe
fffa
ffff
fff6
ffed
fffc
fffd
fffb
fffa
fff7
0015
fff3
000a
fff7
fffd
fffa
fffe
002d
000d
fffb
fffb
0006
fffd
0008
0036
fffc
fff7
0004
fffc
fff8
fffc
0026
fffc
fff9
0005
0002
fff9
0035
000a
ffd9
000e
fffa
0002
fffc
0018
0002
ffec
000d
0001
fffa
000e
000d
0004
fffd
fff9
fffb
0000
0000
fff1
000c
0008
fffb
0005
fffa
0000
000e
ffff
fff6
fffd
0001
fff3
0003
001c
0006
0001
0001
0001
fff4
0010
0011
0002
0008
fffa
fff7
fffd
0017
000c
0002
0002
fffb
0001
fff4
000a
0011
fff4
fff7
fffc
0003
0001
0000
0003
fffe
000a
000a
000e
000a
0011
ffff
000a
0003
0012
0001
000e
fff7
fff8
fff3
0005
0001
000f
0002
000b
ffef
fff2
fff7
fff7
0005
0005
fffe
ffed
0019
fff2
ffed
0015
fffa
fff0
0014
000f
ffd9
fffc
0001
fff9
001c
0011
fffa
0008
001c
0017
000d
0009
000c
0007
000c
0011
0003
fff8
fffa
000d
0008
fffa
0002
fff5
fffc
000a
0007
0010
fff0
000a
0006
0007
0003
000c
0004
ffec
fff7
000a
fffc
ffff
fff3
0001
ffef
fff6
0001
fff6
0000
fff7
0017
fff8
0005
0006
fff7
0008
0016
0002
0003
0005
000a
0009
fff6
fff7
fff7
fffb
fffe
0000
0001
fff2
ffec
fff5
fffb
000f
0005
fffe
ffe7
fff8
0006
fffa
0003
000b
fffc
000d
0009
0003
fff1
0005
fffe
fffd
0000
fff2
ffe8
0008
ffff
0005
001b
0025
ffe4
fff3
0007
fffc
0004
fff7
fffe
ffec
fff8
000e
000a
0011
0014
ffff
0006
0007
0012
000e
0007
fff4
0000
000c
0006
fff7
0004
ffef
fff5
000d
0036
001d
fff5
0006
0006
ffdc
0021
003a
fffc
0003
0006
fffb
ffd4
001c
0013
fffb
fffc
fffa
0004
ffd7
002a
0015
fff6
0007
fffa
fffc
ffd6
0022
0020
0001
0001
fffc
fffe
ffef
0004
000c
000a
0002
0000
fffa
0000
fff1
fffc
fff9
fffd
0009
0000
fff5
ffec
fffb
fff6
fff7
fff3
0003
ffeb
0018
0012
fff9
fff4
0005
0003
fff7
0013
ffe1
fff3
fff4
0006
fffd
0010
0022
fffb
0024
000c
000a
0003
0011
fff4
fff2
fff3
0007
fffe
0009
fff8
fff6
ffff
fff8
0003
0002
ffff
0009
0007
fff9
fffc
000a
fffc
0005
fffa
0014
0010
fff9
fff7
fffe
fff9
fff5
0009
001e
ffdb
fffd
0009
fffc
ffdf
fff6
001e
ffd4
fff2
0003
0007
ffd8
fff9
001e
ffe0
fff9
000b
0006
fff6
0000
0000
0014
000a
0000
fffd
000e
0015
0002
000a
000c
0001
0001
ffff
fffa
fffe
ffff
fff6
000c
0006
ffff
0009
fff9
0002
fff2
0008
000b
fff8
fff7
fffb
ffee
fffd
0005
fffe
0008
0000
fff7
ffed
0003
fff7
0001
000a
0008
000d
0008
0014
000d
fff6
fff7
fffa
fff6
ffff
fff6
fff6
0003
0007
fffd
fff4
0002
0006
0009
0006
0009
ffef
0004
fffa
fffb
000c
fffe
0006
fffd
ffe9
ffbd
fff6
0008
fff9
0002
0003
000c
ffe3
fff8
fff1
fffa
fff7
ffd1
ffd3
ffe2
ffe5
fffd
fffb
ffed
ffe2
0012
000a
fff8
000c
0012
0003
ffe9
0004
0034
000d
fffd
fffa
0006
0000
000a
0011
fffa
fffb
fff9
0004
0004
0004
fff5
fffe
fffa
fffe
fffe
fffd
ffef
0001
fff2
0003
0008
0005
0000
0001
0001
0001
000a
fffb
fffa
0000
0003
000a
fffe
0004
0007
ffff
0005
fffb
fff4
fff2
ffef
fffa
0008
000b
fff9
fff8
fff9
fff8
ffff
fff9
fffe
fff8
fffa
000a
0004
000a
0004
ffff
0002
ffff
fff6
fffe
fff5
fffa
fffa
0009
ffee
fffb
0000
0003
0007
fffc
0006
fff3
0002
000d
000c
fffc
fff0
000a
000d
0000
0002
ffff
000e
0008
fffd
fff2
fffa
fffe
fffb
0009
0002
ffea
fff4
fff4
fff8
fff7
fffd
fff2
fffb
0004
0008
0004
fffc
fff8
0003
fff6
0004
fff1
fff4
ffff
000e
0028
0016
fff9
fff4
ffef
000e
0037
002e
000e
fff3
ffdc
ffec
000b
0026
0027
ffe3
ffef
0010
0008
ffea
ffef
0011
fffd
000e
0026
0034
000c
0006
0002
0009
0000
001e
000a
000e
0012
fffe
ffea
fffa
000a
0004
fff7
fffe
fffd
fff7
0007
0002
0006
fff9
ffff
fffc
0014
0005
ffff
fff6
0007
0009
0006
0010
0011
000e
0006
0004
0002
ffed
0006
ffe7
ffdf
fffa
fff9
fff3
fffa
0014
0009
fffc
fff4
0002
fffe
fff9
fffb
001b
000e
fff4
0001
fff4
0000
0007
0000
0003
fff5
fffd
0008
fff0
fffa
fffe
fffd
0002
fff2
fffc
fff5
fff3
ffe6
ffe1
fffd
fff8
002b
0022
0005
fff9
0007
0005
000c
0039
0028
0023
001c
000e
000f
0006
ffe5
fff6
fff9
fff0
001f
0013
0000
ffe8
fff2
fff6
000f
0011
0009
fff4
0005
fff9
0004
0002
fff3
fffc
0003
0003
0004
0000
fff9
0005
fff5
fff8
fff7
0004
fff7
fff3
0008
fff9
fff0
fff9
fff6
0011
0007
ffff
0005
0007
fff1
fff0
0010
000d
fff8
fffd
0000
000a
fff5
fff0
fff2
fffa
0004
ffff
0018
fff1
fffa
0005
0009
fffc
0008
0001
fff7
fff5
fff4
fff6
fff5
0000
fffe
fff7
0011
0000
0007
fffe
0000
fffd
fffc
fffb
fff3
fff9
fffa
fff6
0010
0004
ffe2
fff2
fffe
fffe
0011
0022
000f
000e
0011
0005
0004
0002
0015
fffb
0005
002b
0019
0010
ffff
ffff
fffa
000e
001a
0006
0001
0008
fffd
fff7
fffc
ffff
fffd
fff8
fff6
0001
0005
0008
fff9
0000
fff5
0000
000e
0012
0027
001f
fff8
fffd
fffa
fffc
001f
0031
002d
fffb
0004
fff1
ffe9
ffcf
ffd0
ffcf
ffe0
fffa
0005
fffc
ffbd
ffe2
ffef
0027
0025
0010
000a
0001
ffff
001f
0025
000c
fff7
fff7
0003
fff4
0001
000b
0003
fff8
0007
fff6
0002
fff8
fff8
ffff
000b
0009
0000
000d
fff7
fffc
0002
fff6
0002
001a
000c
fff7
fff7
000d
0003
000e
0006
0014
0000
000b
0007
ffff
0000
fff0
fff9
0016
0009
000a
fffd
fffa
0006
0004
ffff
0015
fffe
000a
fffc
000b
0003
ffff
0004
0000
fff9
000e
001e
0014
000e
0000
fff9
fffa
0010
000f
002c
0011
0001
fff1
0004
001b
000d
fffb
ffea
ffdf
ffef
001c
fff1
fff5
0003
ffd8
fffc
001a
0005
ffea
ffd5
0001
001e
0026
0030
fffa
0002
fff8
0011
0038
0036
0010
0005
fff3
ffe9
fff6
fffc
000a
0004
fffb
000a
ffff
fffb
0001
fff9
fffd
0001
fffc
0004
ffec
fffa
0001
0018
0005
fff8
0000
fffa
000b
0017
0007
000a
fffe
fff4
fff3
ffe9
fff6
fffb
fffc
000b
fff6
ffea
ffe1
0001
fffe
0003
0004
0004
fff3
fffc
0019
0009
fff6
0006
fff7
0001
fff8
0005
0000
0006
0003
fffc
0008
0005
fffa
fff8
fffd
0001
fffd
fffe
fff7
fffa
0006
0003
fff2
ffff
0001
fffb
fff5
0002
ffec
fff6
0013
fff5
fff5
fff6
0003
fffc
fff4
0009
fffb
fff6
fffc
fffa
fffe
0005
fffe
fffe
000f
fff5
fffc
0006
000c
0006
fffb
0004
fff6
fffe
fff7
fffd
fff0
fffb
fffe
0006
fffb
000a
0008
0025
fffd
ffca
ffcd
ffde
0012
0037
004f
0006
ffec
fffb
fffb
001a
001f
0006
000c
000d
0004
fff5
fff0
000d
000c
ffff
ffe4
ffe8
ffe7
0002
000d
0008
0003
0010
0008
fff0
0007
0002
000b
0009
000c
0004
ffed
0004
fff9
fff5
fff8
fffc
ffff
0009
0006
0007
fff4
fffd
0006
0012
ffff
0002
fff8
fff5
ffff
fff8
000a
fff9
ffff
ffff
fff8
fff3
fffd
0004
fffe
0002
0007
fff9
000e
0007
0002
0005
0008
fff6
fff0
0000
fff5
0001
fffc
0002
0008
fffd
fffb
fff2
fffe
0007
fff9
0001
0006
ffff
fff9
fffa
fff8
000a
000d
0018
000e
fffc
fffc
0003
fffb
fffe
001e
001d
fffa
0003
fff5
0003
0000
fffa
fff6
fff4
fffe
0003
0001
0026
002d
0020
0009
fffe
0003
000a
0016
0028
002a
000f
fffd
000a
0000
fff9
fffc
fff4
0001
fff6
fffc
0005
0005
fffa
fffd
ffff
0001
0008
0002
ffeb
ffe5
fffa
fff3
0005
0003
fff3
ffe7
fffc
0004
fff9
0009
fff8
fff5
ffd5
0006
ffdd
fff3
fff5
fffe
ffec
ffec
0003
ffdf
0001
0008
fffe
000e
ffff
ffe4
fff7
fffc
0004
000b
0009
0004
ffef
ffef
ffef
0003
000a
0009
0003
0006
0007
000a
000b
fff7
0009
0007
0008
000a
fff8
0004
fff8
ffff
fffb
fff3
ffeb
fff8
fff1
fff8
fff4
fffb
ffed
0004
0005
0006
000a
000e
0005
ffeb
fff0
fff2
fffc
fff8
0003
000d
0010
0013
000f
fff6
0007
fffd
0008
0008
fff6
0002
0005
fff9
000b
0009
0008
fffe
fff4
fff9
0004
0003
0008
0027
0025
0003
fff2
0007
0002
0003
001d
0002
ffd0
ffe4
fffe
fffc
ffe6
0011
002f
0028
fff8
fffa
000c
fffb
0024
0026
001a
ffec
fff8
000c
0002
fff5
ffef
fff1
ffeb
ffe9
000c
ffff
fff4
fff8
fff6
fffc
fff9
000c
fffc
ffff
fffe
0008
0001
0005
0004
000f
000b
000a
000a
fff9
fffc
0009
0005
ffef
0001
fff1
fff7
0001
0008
fffe
0004
0008
0005
fff9
fffd
0003
0013
0005
0001
fffe
ffef
fff3
000c
0004
000a
fff7
fffe
0008
fffe
0004
fff6
000b
fffa
ffff
fff8
fffb
fff4
fff7
000f
001b
0014
fff8
0005
0005
0012
0035
0017
ffe8
ffd4
ffe9
000c
002a
000f
0008
0000
0004
0001
fffe
ffe9
ffea
0011
001e
fff1
ffe9
0029
0035
fffa
0008
ffef
ffe6
fff1
001f
0029
0019
fff3
ffeb
ffef
fff6
0003
0028
0026
0016
fff3
fff7
0007
0000
fffe
fffb
fff0
fff3
0005
fffa
0007
fffd
0007
0007
ffff
0017
0012
fffc
0008
fffd
0013
ffed
0016
0008
0001
000a
fffd
fffe
000a
000a
0002
000b
0008
0000
0000
0004
0007
fffb
fff8
0007
0007
0008
000d
000b
fffe
000a
000b
fffc
fffa
0010
fffa
000b
fff8
ffff
0002
fffa
0008
fffa
fffe
fffc
0006
0002
fff7
0005
000d
fffd
fffa
0009
0005
fffd
0008
fffe
0001
000e
0011
ffff
0007
fffb
0003
0004
0011
0004
ffff
fffb
fff5
0002
0009
0001
fffe
0007
fffc
0004
fff7
fff6
fff8
ffff
0002
0009
fffa
fffe
0004
ffff
0005
000a
fff9
0005
0007
0003
fffd
fff5
ffe0
ffd1
ffe0
fff5
ffff
0009
ffe4
ffcd
ffc8
ffc0
fff6
0011
fff3
fff5
000e
0009
fff1
0020
fffc
0009
001f
001c
000a
001f
0026
ffff
0010
0011
fff6
fff4
ffd9
ffee
0006
fff5
fff7
0003
0013
fff9
fffd
fffe
0009
0007
0004
0004
fffa
0009
0003
0001
0000
0013
0009
fffa
000f
fffe
0002
0009
000b
ffea
ffee
0003
fff7
0001
0005
000d
fff4
ffed
0016
fffb
fffb
fff7
000d
0006
fff6
fff5
0009
0005
fffe
fff6
000a
ffff
0008
fff5
fff6
fff5
000a
000a
fff7
0008
fff9
fff6
0006
0001
fff6
0001
001b
0001
0001
fff4
ffe9
ffde
fff4
000d
fffe
0007
000d
fffb
ffff
fff1
ffdd
0001
fffa
0003
ffea
0017
0017
fffb
fffb
0003
0002
0012
ffff
ffe6
fffc
0005
000e
ffff
fff6
ffe9
fff0
fff5
000a
0009
fffd
fff6
000d
fffa
0007
fff4
fff8
fff0
0009
ffff
001a
0009
000b
0002
0015
0016
0012
0026
000a
000a
0000
001c
fff9
001d
0028
fffb
fffd
0005
001a
fff3
001e
000a
0001
0004
000a
000b
0009
000b
fff6
0001
0004
0009
0000
000c
001e
000b
fffc
0002
fff6
fffa
fffd
000d
0000
fff6
0005
0003
fff3
fffe
ffe3
ffff
0005
0000
0008
fffb
ffde
ffe7
fff4
fffc
0004
fffc
000e
0001
002c
0004
fffc
fffb
000a
0007
0005
0037
0006
000c
ffff
0007
0007
fffe
0007
fffb
fff7
fff4
fffc
0004
ffe8
fff0
0002
fff8
0005
0002
fff3
fffd
fff3
0009
0005
0004
0009
0008
0008
fff9
fff7
000e
0004
fffd
0004
0012
fff2
fffe
fffa
0008
fff9
000b
fff3
ffd6
0009
ffee
fffc
0004
000b
0017
001d
fffe
fff6
0005
000d
000e
fffd
001c
ffee
0001
0003
fffd
fffa
0000
fffb
0010
0003
0005
fff5
fffc
0009
0015
0004
0006
fffb
fff8
0004
fffc
fffd
fff7
ffff
0003
0006
fff5
fffa
fffa
fff5
fff9
000a
fff7
0002
0007
fffb
fffb
ffeb
fff8
fffb
ffef
fffc
0009
0006
0008
fff5
0004
0009
000c
ffff
fff9
ffff
000a
0001
000b
fff6
fff7
0004
0004
fff9
000b
fffc
fff6
0003
fffa
fffa
fffa
0002
0001
ffff
ffec
fff2
0004
fff7
0001
0010
ffde
ffa4
ffc0
ffe5
0008
fff9
fffa
ffeb
ffd1
ffd0
ffdf
0006
fffb
0010
0039
003c
001c
001b
fff3
fff0
000c
002e
0023
0015
001a
fff1
fffd
fff1
ffd8
ffd2
0004
0003
fffb
fff5
fffe
ffee
ffed
ffff
000c
0008
fff8
fffd
0009
0008
fff6
0010
fffa
0003
000a
0003
0002
0005
0013
fff7
fff8
fffe
fffd
000a
fff9
ffe4
ffe3
0005
fffe
0002
0002
fff3
ffe8
fff1
ffff
fffe
0000
fff8
fff8
fff0
ffff
0004
0009
fff0
fff6
000f
0003
000f
0000
fff5
0000
fff3
0000
fff5
000b
fffa
0007
fff8
fff4
0003
0007
0002
fff4
fffb
ffed
fffb
0004
0012
0013
fff9
0008
0002
fff5
fff1
fffc
0005
0005
0005
0002
ffe9
ffe8
fff8
0000
fffb
0005
fff7
000a
000a
fff5
fffa
fff5
fff7
0002
000a
000c
000b
0009
fff1
fff4
fff6
fffb
0001
000a
000a
fff8
fff4
fff3
fff7
0006
fffe
fffd
fffa
ffe7
ffe3
0025
0055
006a
0020
ffe8
ffd8
ffeb
fffe
0040
005f
003e
fffd
0002
0010
000d
0000
ffeb
0014
0004
000d
001e
0001
ffd6
ffb8
ffe0
fff6
0001
0004
0005
fff4
fffc
fff8
ffea
ffe5
ffed
fff6
000b
0009
0007
0005
fffe
fffc
fff8
fff4
0008
0008
fff5
fff5
fffb
fff9
ffe8
ffda
fff9
0001
fffa
fff8
0013
000d
fff7
ffeb
0007
000b
0000
0024
000d
000f
000b
fff9
ffff
fffa
fffd
0018
0011
fffb
fff9
0000
fffc
fff8
fff5
0003
0008
0003
fffd
fff5
ffff
0002
fffb
0009
fffe
0000
000a
fffe
fffd
0003
fff4
fff7
ffed
fff6
0002
0016
0005
0014
fff8
ffdc
ffe1
fff3
fff8
fffe
ffff
0006
0006
fff4
ffea
ffed
0003
0005
000e
0024
0020
0019
0008
0010
0008
0001
0004
0019
002c
000e
0006
fff8
ffed
fffd
ffff
0002
fffb
fffb
fffb
fffb
0002
fff7
fff8
0005
000c
0005
fffb
0019
000b
ffe9
fff4
000f
fffd
ffff
0008
000f
ffd6
ffda
0008
fff8
fffc
fff7
0009
fff8
ffec
fff3
fff5
ffe8
ffe8
ffed
000e
0013
000b
fff6
ffea
ffee
ffd5
0002
0006
ffff
000b
fffa
0001
fff8
ffee
0008
0003
0001
0001
fff8
fff9
0004
fff1
0006
0008
fff3
fff8
fff5
000e
000e
001a
fffc
fffa
ffed
ffed
fff0
0003
0017
0005
fff2
fffc
fff2
ffdc
fffc
000b
0007
000a
ffff
ffff
000b
ffef
0000
0009
ffff
0003
001e
000f
0010
0007
fffb
fffb
fffc
000d
fffc
0003
fff5
0003
0005
0004
fff9
fff6
0009
0005
fffc
fff4
0008
ffed
ffec
fff4
000a
ffff
fff6
0007
0000
ffef
0010
002a
002f
fff2
000f
0021
0018
002c
0026
0014
0004
0008
0015
0006
000d
ffff
fff1
fff8
0001
000a
ffff
ffff
fff8
0009
fffa
fff3
fff6
fff0
fffb
fffe
fffc
0007
fff8
fff7
0000
fffb
fffa
fff4
fffc
fff5
0006
0005
0017
000c
0002
fffe
fff5
0000
fffa
0005
0017
0006
000a
000c
0000
fff7
000f
0007
000d
fff6
0006
0003
000a
fff3
fff5
0000
000b
0003
0005
0012
0000
fff8
0007
0008
000a
0009
000b
fffc
0002
fffc
fffc
0007
ffed
fffe
ffff
0007
fffe
fff4
0004
0008
0000
0011
002f
0020
ffec
fffa
0008
0008
002b
0013
0032
fff8
0000
001c
000d
0026
ffeb
fff1
000d
0029
000e
0007
fff4
fff8
fffc
000c
000d
0027
0003
ffe9
0003
0000
fff8
ffff
0006
0007
fff2
ffff
0004
0007
fffc
0005
000e
0011
fffc
fffa
fff6
0002
0000
0010
0004
fff9
fffb
0007
fff5
0005
000b
fff0
ffe2
0001
fffa
0008
0003
0005
ffe9
fff5
0012
000b
fff9
fff5
fff9
fffe
000f
000f
0005
000b
fff6
fff2
fffa
000a
fff7
0009
0002
0007
0007
0009
000c
fffd
fffc
0009
0008
0003
0001
ffff
fffc
0009
fff5
0006
0006
fffc
fffa
fff7
fffa
0001
fffe
ffff
0006
0007
0007
fffa
0005
ffff
fff2
000a
fffc
0008
000a
0005
0008
fff6
0001
fff6
fff8
0000
000d
fff4
fff9
fffb
ffff
fff6
fff5
fffa
000a
ffff
fffb
0008
0009
0007
fffc
fff6
fffc
0005
000b
0009
fffb
0001
fff1
0009
003d
004f
0022
0003
ffdf
ffd7
ffff
0037
003a
0001
fff2
ffce
ffcb
ffea
fff9
ffd3
ffec
0004
ffef
ffd4
ffe4
fff8
000e
0008
fffa
fffa
0007
0021
0019
0017
ffff
fffa
ffe5
ffe6
fffe
fffb
fff0
0005
fffe
0000
000a
000c
fff7
0003
fffd
fffb
ffff
0001
fffc
ffe1
fffe
0009
ffff
ffff
0003
fff3
0008
fffe
000a
0005
0005
fffd
0000
0005
fff8
0002
fff7
ffff
fffc
0004
0002
0008
fff9
fff8
0004
fffd
000b
fff0
0007
fff8
fff7
ffff
fffb
fff9
0007
0009
0006
0002
0003
fff2
0003
ffed
fff5
000b
fffe
0004
fff5
0008
fff7
0008
0005
ffff
0006
0004
0002
002b
001e
000c
ffef
ffe4
ffec
fffc
0015
0008
ffef
fff1
ffd3
ffce
0000
0010
ffeb
fff3
fff7
0007
fff5
fffc
0008
fff7
fffd
0008
0006
0000
0006
0002
0005
fffb
000f
000f
0001
001a
fffe
0000
fff5
000b
000c
0007
0013
0002
fff9
0002
0018
0014
fff9
fffd
ffee
0002
fff8
0006
0015
000b
ffeb
fffe
ffff
fff6
0004
0014
0005
fffe
0002
0007
fffe
fff9
001a
000d
fffa
0004
0005
000a
0004
fff6
fff9
fff3
0004
000a
0001
fffb
0001
0002
0009
0003
0002
000f
000c
fff1
ffe7
ffec
ffdf
fffc
fffa
ffff
fffb
0000
0010
0020
0011
0011
fffd
ffff
0011
001c
0019
0005
fff2
fffd
fff7
000a
fff4
0005
fff0
0001
fffc
fffa
fffb
0009
0006
fff6
0002
000b
0008
0001
fffe
0004
fff5
fffd
000b
0005
0001
fffb
fff9
0000
fff7
fffe
fffc
fff2
ffdf
ffe8
0015
0007
fffb
0006
ffcb
ffc2
fff7
0019
ffff
fff7
0004
ffe0
ffcb
fff8
000b
ffec
fffd
000f
000a
ffee
0013
fffd
ffff
fff2
0009
0016
0037
000f
ffff
0004
ffff
fff3
ffe9
ffee
0003
0002
0002
fffe
fff7
fffe
fffd
fff5
000c
0003
0003
0007
fff9
ffe5
fffb
0007
0007
fffa
fffd
ffef
fffb
0005
001a
0013
fff4
fff5
fff7
0001
0014
fffd
fff5
fff6
fffe
fff1
fff4
0002
fffe
0003
0008
0002
0001
fff7
0007
fff9
0000
fffa
fff9
fff9
fffa
fff9
fffa
fffc
fff8
000d
0000
ffe8
fff4
0001
0008
0009
ffe8
ffc3
ffb9
fff7
0029
0005
fff9
ffe9
ffd3
ffcc
000f
001c
fff3
fff8
ffe7
ffe4
000b
0028
0011
0001
ffed
ffea
0001
0009
0023
000d
fffb
fff6
ffec
0022
002f
0016
ffed
fff7
fffa
ffff
fff3
ffe4
ffe9
ffff
fffb
0006
0001
fffc
fffd
fffa
0006
0008
0000
fff9
0007
0007
0007
000c
0004
0001
fffb
fff2
000a
0001
0015
0003
0005
0008
000c
0016
fff8
0001
fffd
fff9
fff8
000a
0014
000e
0011
0002
fffb
fffd
000b
0012
0007
0003
fffe
ffff
0008
0001
0014
fffe
000c
0003
0005
ffff
fffd
fff5
fff3
0006
000a
0005
fff9
0004
0006
fffe
fffc
0004
fffb
fffb
fff7
0008
fffd
fffe
0006
0009
0018
0005
0008
0002
000a
0005
ffff
0003
fffa
0017
0006
fff5
fff9
fff6
fff9
000c
0002
fff3
fff8
0005
0001
fffd
000d
0004
fff9
fffb
fffb
fff6
fff5
fffd
0009
0010
0000
0008
0002
fff1
fffc
0002
fff8
fffe
0000
fffc
0029
002a
0032
ffe9
0001
0005
0004
0034
0031
0012
fff7
fff2
fff5
0007
0025
0013
ffd7
0012
002c
0000
fff5
ffe6
ffd5
ffc6
ffda
fff3
fff6
0004
fff4
ffee
ffda
ffda
ffe5
fff8
fffa
0009
fffb
0003
fffa
fffe
fffd
fffc
000d
0001
0004
fffe
0001
0008
0008
0008
000b
000f
fff9
fff8
000a
fffc
0001
fffc
0005
0015
0004
0000
fff7
0007
000b
fff7
fffa
fffe
fffe
0009
fff5
fffe
0003
fff6
0002
0007
fff7
0004
ffff
000d
fff8
000a
fffc
000a
0000
0003
0000
0009
0004
0003
0002
fff0
fff8
0014
0026
000a
0006
0009
0008
001e
0008
0007
0000
fffd
000d
0012
000b
0004
ffe7
fffe
0001
0004
000c
000d
0003
fff1
0003
fffe
000a
0017
fffa
ffec
fffb
fff7
0009
0001
fff1
fff2
000c
fff2
0008
fffc
ffff
fffb
0005
fff6
fff7
0007
fffa
fffc
fffc
fff4
ffff
fffd
0008
000b
fffa
fff9
0009
0020
fffb
0008
ffff
fffa
0000
ffe3
0042
000a
0004
0009
0002
fffc
0001
002b
000a
0002
fffa
fff8
fff5
0012
0020
fff3
fff4
fffb
0009
fffc
000c
0008
ffff
fffd
fff7
0004
fffa
0003
0001
0007
fff1
0006
0007
000d
000a
000c
0013
0005
0006
fff7
000a
0012
001b
001a
000a
fff3
fff7
0006
fffc
ffea
0007
0014
0001
0001
fff6
0015
fffa
ffeb
fffd
0008
ffff
0011
fffc
ffea
fff2
0000
fff8
000c
fffc
fffc
fffd
fff9
000b
fff9
fffd
fffd
0007
0004
0008
ffff
0006
0003
0017
0016
001e
000e
0002
fff5
000d
000c
0014
0020
001b
ffec
fff1
000f
000a
fff6
ffeb
0018
fffc
fffa
0007
0000
fff9
fffa
fff0
fffc
0000
fff0
ffe9
ffd4
fff1
ffee
ffed
fff4
fffe
ffff
fffe
0003
fff9
fff7
fff5
000a
0008
000c
fff9
000b
0002
fff3
000c
0002
0001
000f
0010
000f
fff3
000d
0007
0008
0005
0004
000f
0008
0009
0001
0002
0009
0002
fffe
0006
0009
fff7
fff6
0001
fffd
fffb
fffe
0000
fffb
0005
0002
fffe
fff9
fffe
0007
0001
fff5
0001
0006
fffd
fffe
fffe
0005
0004
fff0
0003
0003
0004
0001
0022
003b
002c
0017
ffea
0000
000f
0037
0021
002c
0025
fff9
fff8
000d
ffff
ffde
ffbd
0009
000f
fff1
fff7
ffed
ffd8
ffe7
000b
0023
fff8
000b
ffe8
ffbc
ffd3
ffe1
ffd6
fff4
0007
0001
fffe
ffff
fffe
ffff
0000
fff6
fffe
0003
fff6
000b
0000
fffb
0001
0004
0004
0002
ffeb
fff6
0002
0003
fffb
fff5
fff3
fff9
fff7
000b
fffb
000b
0002
0000
0019
0001
0004
0008
ffff
fffc
ffec
fff2
fffa
fff6
0005
fff5
0000
ffeb
fff6
fffe
fffb
0006
fff6
fffd
0003
fffb
0000
fffd
0003
0006
ffff
000d
0010
0003
fff8
ffff
000a
000c
fffe
fff7
fffb
0009
fffe
ffff
fff6
ffe9
fffc
fff9
fff5
000c
fffa
fffa
fff6
0008
0009
000a
0005
fff9
0001
fff5
0005
fffc
fff5
0005
fffe
fff7
fff6
0004
0006
fff8
fff5
000a
000c
fff8
000b
0002
fffd
fffb
0000
0017
fffe
fffb
000a
fff9
000e
0003
fffb
0002
fff9
fff6
0000
fff9
ffe5
ffc3
ffee
0003
fff8
000b
0012
001a
ffc5
ffe8
0009
004f
001f
0002
ffde
ffcd
000d
fff6
ffe0
0003
fffe
fffc
0001
0002
000b
fffd
fff3
fff6
0003
001e
0020
001b
0006
0004
fff9
0006
0008
fffd
fff7
fffd
fff6
fff6
0006
0005
fff7
ffed
000e
000a
000a
ffff
0002
fff0
ffef
fff6
fff7
000b
fffd
000e
fffe
000b
0000
0007
fffb
fffd
0007
fff5
0014
0014
0007
fffd
0008
0004
fff5
0003
0003
ffff
fffd
fff6
0009
fff4
fff6
0002
ffff
ffff
0000
0018
0015
000f
000e
fff9
fff5
0014
001e
fff9
fffd
0011
0009
000d
fff3
ffe3
0007
0014
fffc
0001
fffb
0022
002a
0010
0001
ffe5
fff3
fffe
ffec
ffd6
ffd9
fff0
fffb
fffe
fff2
ffde
ffec
fffa
ffff
fff2
fffd
000c
000f
0012
0009
fffb
fff7
0006
0006
fffd
0007
0003
fff2
fffc
fffc
0005
0009
fffb
ffee
fff3
fffe
fff9
000a
fffc
ffee
ffde
0009
000e
0005
0017
0015
000f
ffce
ffec
fffd
fff9
000b
0006
0007
ffdd
ffed
0006
fffb
0006
0000
0000
fff2
000b
fff6
0005
0002
fffa
ffff
0005
fffb
0008
fff8
0008
fff9
000d
0015
000a
0002
fffd
0001
0010
0011
0001
0004
000b
000c
0003
fff3
fff1
000a
0007
ffef
0001
fffb
fff0
0001
000c
0008
0003
ffff
0004
0009
ffd8
ffde
ffee
fffc
fff5
0006
ffe2
fff7
fffa
fff2
fffc
0002
0003
fffe
fff8
fffa
fff6
fffc
fffe
0008
fffa
fffc
0009
000a
fff7
ffff
0003
0001
ffee
fffb
000c
000a
0002
0006
fff7
0024
0018
ffed
ffe5
fff4
000b
0028
002b
ffea
fffa
fffa
0007
fff7
fffb
ffe4
fff0
0016
0010
0008
fff3
0007
0008
0006
0004
fff6
0004
fff3
fffd
000b
0016
fffa
fff7
fff6
fffb
0009
0008
0012
0002
fff9
000b
0007
fff8
0005
0008
0005
fff8
fffb
0005
0008
fffd
fffd
0004
0005
fff2
0005
fff8
fffd
fff0
0000
fff3
0000
fff8
fffc
ffed
ffe8
fff0
fffd
ffff
fffd
0006
fffe
fff3
fff6
fff7
fffb
fffc
0003
fff6
fff7
0008
fffd
0000
0004
fffa
000a
0000
0003
fff9
0004
fff3
fff4
fffc
0015
002b
0009
0008
0003
0006
0006
0002
fff4
001b
0010
fffe
001a
0024
001c
0020
0005
000b
ffed
ffe7
ffe7
0001
0006
ffdf
fffc
ffec
ffed
0011
001e
fff4
fffb
0005
fffd
0005
0004
0018
0014
0003
0004
0008
fff8
0006
0002
000d
0003
fffc
fffe
fff8
0000
0007
0003
fff7
fffe
0002
fffe
fff5
ffe1
0007
0016
fffe
0009
0009
fff1
ffe5
000e
002f
0008
0005
0007
fff5
0000
0009
0005
fff5
0004
000b
fffb
000d
fff3
fff9
0005
fffd
0006
0009
0018
0004
ffff
000a
0004
fff7
fffe
000a
fff9
0005
fffc
000b
fff6
0014
0001
000b
0003
0003
0005
0008
0000
fff0
fffa
fff5
0000
0006
ffeb
fff6
0005
fffd
0007
0000
fff4
fffc
fff2
000a
fffa
0009
fffb
fff8
0000
fff8
0006
0007
fff6
fff8
0009
0007
0014
0015
fffd
0007
fff5
0008
fffb
000a
0019
0007
0002
000a
0003
000f
0002
000b
fff4
ffef
fff7
ffec
ffca
fff4
0004
fffa
ffd6
ffe1
fffd
ffea
000b
0033
0012
0007
fff1
0004
0004
0030
0026
fffd
fff2
fff0
fffc
000b
fffe
fffc
ffe2
ffd1
fff5
0001
0005
fff1
ffe4
ffe1
0008
000f
fff5
fff7
fffe
0012
0003
0004
fff5
000b
0005
ffec
ffed
0017
fffe
fffc
0004
fff4
fff7
fff9
0018
0015
0006
fff9
0006
fff7
fff2
ffea
000a
0002
0003
0003
000a
fff8
ffd5
fffe
0009
fffe
0000
0000
ffff
0005
fff8
fff9
fffe
fff9
fff8
0000
0005
000b
0008
0008
000a
0013
0016
0002
ffea
fffb
fffe
0004
002c
0018
0003
fffa
fff6
0000
ffe2
ffd9
ffe9
0003
fffd
fff9
fff2
ffd6
fff8
fff1
fffd
ffed
fffb
fff6
ffff
0024
0012
fff9
fffe
fffd
0006
0023
0024
0001
fff5
0000
fffd
fffa
fffa
fffa
fff4
0001
0009
0007
fffc
0004
0001
0006
fffd
fff7
0002
fffa
fff9
ffff
ffe8
ffdb
0004
0006
0005
fffa
fff5
ffe5
fff3
ffff
0004
0009
0004
ffef
fffd
000b
0001
fff6
000d
0003
fff0
000e
0001
fff9
fffd
fffa
000e
fffd
0009
0002
fff9
0007
fffb
000a
0011
0006
0016
fff9
fffe
0007
0008
0014
0013
fff3
fffa
fff2
0008
0003
002e
0018
0009
fffe
fff6
fffd
000c
fffc
fff0
ffec
fff9
0008
fff0
ffe0
0005
0017
ffee
ffee
fff2
fff9
ffea
fffd
0002
0000
fff6
0006
0000
0014
0008
fff6
0002
fffb
0009
000c
000e
fffa
fffc
fffd
0003
fff8
fff8
fffb
0013
0011
fff8
fffc
fff9
fffe
fff6
ffdd
ffdb
fff7
fffd
0008
ffff
ffda
ffd3
fffe
fff5
0009
fff4
0004
000c
0016
003e
fff6
ffe7
0009
0009
001b
0024
0008
0000
ffe3
ffeb
fff4
0006
fffe
ffed
fff7
fff7
0006
fffa
0011
0002
0001
0009
0012
000a
fff7
0002
0003
0009
0010
fff8
0006
0000
fffa
ffff
fffd
000a
0004
000c
0003
fffd
fff1
fff4
fff7
fffe
fff5
0006
fffc
ffff
fffd
fffd
0003
fffc
0008
fff7
0006
fffa
0003
0001
0004
fffb
0006
ffff
0001
000e
fff6
0003
fff6
0005
fff6
fff5
fffd
0009
0006
0008
fffd
0008
fff7
fffa
fff5
0002
fffd
ffd5
fff4
0034
0026
0007
fffb
fff5
ffde
0002
0027
ffe0
0005
ffeb
ffeb
fffd
003c
001f
ffe4
fff0
fff6
ffeb
0013
0044
ffdf
ffbd
ffd4
fffb
0000
0014
0004
ffd3
ffdf
ffef
0005
fffe
fff8
fffc
0007
000a
001e
ffff
